unsigned char wine_mlp_float_tflite[] = {
  0x1c, 0x00, 0x00, 0x00, 0x54, 0x46, 0x4c, 0x33, 0x14, 0x00, 0x20, 0x00,
  0x1c, 0x00, 0x18, 0x00, 0x14, 0x00, 0x10, 0x00, 0x0c, 0x00, 0x00, 0x00,
  0x08, 0x00, 0x04, 0x00, 0x14, 0x00, 0x00, 0x00, 0x1c, 0x00, 0x00, 0x00,
  0x98, 0x00, 0x00, 0x00, 0xf0, 0x00, 0x00, 0x00, 0x1c, 0x08, 0x00, 0x00,
  0x2c, 0x08, 0x00, 0x00, 0xdc, 0x0d, 0x00, 0x00, 0x03, 0x00, 0x00, 0x00,
  0x01, 0x00, 0x00, 0x00, 0x10, 0x00, 0x00, 0x00, 0x00, 0x00, 0x0a, 0x00,
  0x10, 0x00, 0x0c, 0x00, 0x08, 0x00, 0x04, 0x00, 0x0a, 0x00, 0x00, 0x00,
  0x0c, 0x00, 0x00, 0x00, 0x1c, 0x00, 0x00, 0x00, 0x3c, 0x00, 0x00, 0x00,
  0x0f, 0x00, 0x00, 0x00, 0x73, 0x65, 0x72, 0x76, 0x69, 0x6e, 0x67, 0x5f,
  0x64, 0x65, 0x66, 0x61, 0x75, 0x6c, 0x74, 0x00, 0x01, 0x00, 0x00, 0x00,
  0x04, 0x00, 0x00, 0x00, 0x90, 0xff, 0xff, 0xff, 0x0a, 0x00, 0x00, 0x00,
  0x04, 0x00, 0x00, 0x00, 0x08, 0x00, 0x00, 0x00, 0x6f, 0x75, 0x74, 0x70,
  0x75, 0x74, 0x5f, 0x30, 0x00, 0x00, 0x00, 0x00, 0x01, 0x00, 0x00, 0x00,
  0x04, 0x00, 0x00, 0x00, 0xca, 0xf7, 0xff, 0xff, 0x04, 0x00, 0x00, 0x00,
  0x0c, 0x00, 0x00, 0x00, 0x6b, 0x65, 0x72, 0x61, 0x73, 0x5f, 0x74, 0x65,
  0x6e, 0x73, 0x6f, 0x72, 0x00, 0x00, 0x00, 0x00, 0x02, 0x00, 0x00, 0x00,
  0x34, 0x00, 0x00, 0x00, 0x04, 0x00, 0x00, 0x00, 0xdc, 0xff, 0xff, 0xff,
  0x0d, 0x00, 0x00, 0x00, 0x04, 0x00, 0x00, 0x00, 0x13, 0x00, 0x00, 0x00,
  0x43, 0x4f, 0x4e, 0x56, 0x45, 0x52, 0x53, 0x49, 0x4f, 0x4e, 0x5f, 0x4d,
  0x45, 0x54, 0x41, 0x44, 0x41, 0x54, 0x41, 0x00, 0x08, 0x00, 0x0c, 0x00,
  0x08, 0x00, 0x04, 0x00, 0x08, 0x00, 0x00, 0x00, 0x0c, 0x00, 0x00, 0x00,
  0x04, 0x00, 0x00, 0x00, 0x13, 0x00, 0x00, 0x00, 0x6d, 0x69, 0x6e, 0x5f,
  0x72, 0x75, 0x6e, 0x74, 0x69, 0x6d, 0x65, 0x5f, 0x76, 0x65, 0x72, 0x73,
  0x69, 0x6f, 0x6e, 0x00, 0x0e, 0x00, 0x00, 0x00, 0x28, 0x07, 0x00, 0x00,
  0x20, 0x07, 0x00, 0x00, 0xb0, 0x06, 0x00, 0x00, 0xa0, 0x04, 0x00, 0x00,
  0x84, 0x04, 0x00, 0x00, 0x54, 0x04, 0x00, 0x00, 0x04, 0x04, 0x00, 0x00,
  0xb4, 0x00, 0x00, 0x00, 0xac, 0x00, 0x00, 0x00, 0xa4, 0x00, 0x00, 0x00,
  0x9c, 0x00, 0x00, 0x00, 0x94, 0x00, 0x00, 0x00, 0x74, 0x00, 0x00, 0x00,
  0x04, 0x00, 0x00, 0x00, 0x7e, 0xf8, 0xff, 0xff, 0x04, 0x00, 0x00, 0x00,
  0x60, 0x00, 0x00, 0x00, 0x10, 0x00, 0x00, 0x00, 0x00, 0x00, 0x00, 0x00,
  0x08, 0x00, 0x0e, 0x00, 0x08, 0x00, 0x04, 0x00, 0x08, 0x00, 0x00, 0x00,
  0x10, 0x00, 0x00, 0x00, 0x24, 0x00, 0x00, 0x00, 0x00, 0x00, 0x06, 0x00,
  0x08, 0x00, 0x04, 0x00, 0x06, 0x00, 0x00, 0x00, 0x04, 0x00, 0x00, 0x00,
  0x00, 0x00, 0x00, 0x00, 0x0c, 0x00, 0x18, 0x00, 0x14, 0x00, 0x10, 0x00,
  0x0c, 0x00, 0x04, 0x00, 0x0c, 0x00, 0x00, 0x00, 0x86, 0x15, 0xde, 0x51,
  0xa6, 0x78, 0xd4, 0x03, 0x02, 0x00, 0x00, 0x00, 0x02, 0x00, 0x00, 0x00,
  0x04, 0x00, 0x00, 0x00, 0x06, 0x00, 0x00, 0x00, 0x32, 0x2e, 0x31, 0x39,
  0x2e, 0x30, 0x00, 0x00, 0xea, 0xf8, 0xff, 0xff, 0x04, 0x00, 0x00, 0x00,
  0x10, 0x00, 0x00, 0x00, 0x31, 0x2e, 0x35, 0x2e, 0x30, 0x00, 0x00, 0x00,
  0x00, 0x00, 0x00, 0x00, 0x00, 0x00, 0x00, 0x00, 0x04, 0xf4, 0xff, 0xff,
  0x08, 0xf4, 0xff, 0xff, 0x0c, 0xf4, 0xff, 0xff, 0x10, 0xf4, 0xff, 0xff,
  0x16, 0xf9, 0xff, 0xff, 0x04, 0x00, 0x00, 0x00, 0x40, 0x03, 0x00, 0x00,
  0x22, 0x70, 0xbf, 0x3e, 0xcc, 0xdc, 0x02, 0x3f, 0x6a, 0x18, 0x5e, 0x3e,
  0xc0, 0xe3, 0x44, 0xbe, 0xff, 0xd4, 0x1a, 0x3e, 0x26, 0x1d, 0x7d, 0xbe,
  0xf2, 0x89, 0xca, 0x3d, 0x14, 0xdd, 0x86, 0x3e, 0x2d, 0xa5, 0xa9, 0xbe,
  0xdb, 0xdd, 0xbb, 0x3e, 0xe2, 0x67, 0x3d, 0xbe, 0xfd, 0x48, 0xa1, 0xbe,
  0xdf, 0xfc, 0xaa, 0x3d, 0x66, 0xd5, 0x45, 0x3e, 0xdd, 0x4d, 0x24, 0x3e,
  0xe0, 0x9c, 0x78, 0x3e, 0xd8, 0x3b, 0x2b, 0xbd, 0x8e, 0x07, 0xa1, 0x3e,
  0xd3, 0xbe, 0xec, 0x3e, 0x6c, 0xb8, 0x1e, 0xbe, 0x97, 0x79, 0x0d, 0xbe,
  0x25, 0xef, 0x9a, 0xbe, 0x64, 0x48, 0x07, 0xbe, 0xba, 0x1e, 0x95, 0xbc,
  0xd5, 0x6e, 0x0f, 0x3f, 0xfb, 0x7a, 0xa6, 0x3e, 0x44, 0x3f, 0x52, 0xbe,
  0x60, 0xef, 0x02, 0xbf, 0x6b, 0x36, 0x5e, 0x3d, 0xfa, 0xaf, 0x72, 0x3e,
  0xb5, 0x03, 0xd2, 0x3e, 0x3e, 0x2f, 0xa7, 0x3d, 0xf8, 0x7c, 0xf4, 0x3e,
  0xd3, 0x6e, 0xc5, 0x3d, 0x28, 0xfb, 0xbf, 0x3e, 0x43, 0xf9, 0x90, 0x3e,
  0x26, 0xd5, 0xba, 0x3e, 0x3f, 0xad, 0xb9, 0x3b, 0x2a, 0xbf, 0x7d, 0x3e,
  0xed, 0xbf, 0x54, 0xbe, 0x76, 0x02, 0x7e, 0xbe, 0x02, 0x0a, 0xf0, 0xbe,
  0x3c, 0x21, 0x1c, 0x3f, 0xfe, 0xb0, 0x82, 0xbe, 0x10, 0x0c, 0xdd, 0xbe,
  0x21, 0xcf, 0x9a, 0x3e, 0x8c, 0x4e, 0x77, 0xbe, 0x39, 0x2b, 0xb7, 0xbc,
  0xce, 0xfc, 0xc6, 0xbe, 0xdf, 0xd7, 0x5a, 0xbd, 0xd5, 0xe6, 0xf9, 0x3e,
  0xd0, 0xea, 0xc3, 0xbe, 0x69, 0x00, 0x43, 0x3e, 0x36, 0xbd, 0xa2, 0x3d,
  0x10, 0xb8, 0x23, 0x3e, 0x72, 0xc7, 0x88, 0x3e, 0x84, 0x8e, 0x79, 0xbe,
  0xa7, 0x74, 0xde, 0xbe, 0xc0, 0x2b, 0x1a, 0xbf, 0x89, 0xff, 0x98, 0xbe,
  0x4f, 0x00, 0xda, 0xbd, 0xed, 0xd6, 0x34, 0xbe, 0xf4, 0x68, 0x5a, 0xbd,
  0x37, 0x20, 0x09, 0xbf, 0x86, 0xdd, 0xa6, 0x3e, 0xb1, 0xda, 0xe3, 0xbe,
  0xe3, 0x86, 0xbc, 0xbe, 0xca, 0x74, 0x5a, 0xbd, 0x83, 0x6f, 0x61, 0x3c,
  0x2a, 0x9e, 0x58, 0x3e, 0x65, 0x92, 0x9d, 0x3e, 0x08, 0x8f, 0xb1, 0x3e,
  0xee, 0x9b, 0x0b, 0xbe, 0x15, 0xeb, 0x60, 0xbd, 0xcc, 0x9d, 0xa0, 0xbe,
  0x7d, 0x3e, 0x8c, 0xbe, 0x68, 0xb0, 0xe0, 0xbe, 0x64, 0xb8, 0xbd, 0xbd,
  0x4e, 0xb4, 0xa7, 0xbe, 0xd1, 0x11, 0x29, 0xbc, 0xa2, 0x15, 0x2d, 0xbc,
  0xd6, 0xba, 0x3d, 0xbe, 0xf0, 0xa0, 0xa0, 0xbd, 0x13, 0x13, 0xdd, 0xbe,
  0x5b, 0x7e, 0xd0, 0x3e, 0xcf, 0xab, 0x57, 0x3e, 0xa2, 0xdf, 0x4d, 0xbe,
  0xa5, 0xbc, 0xbe, 0xbe, 0x5b, 0x77, 0xf3, 0x3e, 0x49, 0xd4, 0xab, 0xbe,
  0xdf, 0x49, 0x02, 0xbf, 0xaa, 0x8f, 0xf0, 0x3e, 0x14, 0x12, 0xc1, 0x3d,
  0x10, 0x2d, 0x27, 0xbc, 0xe1, 0x75, 0xa7, 0xbd, 0xc5, 0x8d, 0x1b, 0xbe,
  0xd5, 0xaa, 0x20, 0x39, 0x3a, 0x66, 0xbe, 0x3e, 0xc4, 0x92, 0x68, 0x3e,
  0xd8, 0xaa, 0x5c, 0x3e, 0x30, 0xe8, 0x3a, 0x3e, 0x77, 0x9d, 0x19, 0xbb,
  0xe1, 0x5f, 0xb9, 0x3e, 0x06, 0x43, 0x0d, 0x3f, 0x38, 0xc9, 0xd6, 0xbc,
  0x3d, 0xc9, 0x8a, 0xbe, 0x0b, 0x4f, 0xd8, 0x3e, 0x52, 0x1c, 0xa4, 0xbe,
  0x41, 0x6c, 0x8d, 0x3e, 0x34, 0x52, 0x97, 0xbe, 0x2f, 0xa6, 0xa7, 0x3e,
  0x6b, 0xb7, 0x24, 0xbe, 0xa2, 0x85, 0x04, 0xbe, 0xb6, 0x62, 0xb2, 0x3d,
  0x23, 0xd9, 0xa0, 0xbe, 0x2c, 0xf9, 0x8d, 0x3e, 0x48, 0x41, 0xf3, 0x3e,
  0x23, 0x36, 0xe3, 0x3d, 0xfe, 0x78, 0xe5, 0x3e, 0xae, 0x32, 0x68, 0xbe,
  0xd4, 0x36, 0x98, 0x3e, 0x55, 0x3e, 0x23, 0x3d, 0x57, 0x44, 0x81, 0x3e,
  0x8e, 0x6e, 0x34, 0x3e, 0x1b, 0xc3, 0xbe, 0x3d, 0x8a, 0x7a, 0x60, 0x3e,
  0x10, 0x79, 0x44, 0x3e, 0x2e, 0x1d, 0x92, 0xbd, 0xf8, 0x4a, 0x83, 0x3d,
  0x79, 0x62, 0xfa, 0xbe, 0x57, 0x10, 0x1a, 0x3e, 0x5f, 0x3c, 0x5e, 0xbe,
  0xdd, 0xde, 0x52, 0x3e, 0x4b, 0xa3, 0x46, 0x3d, 0x67, 0x3d, 0x68, 0x39,
  0x7f, 0x86, 0x84, 0xbe, 0x37, 0xa8, 0x3e, 0x3e, 0x18, 0x50, 0xc7, 0x3e,
  0x2d, 0x30, 0x28, 0xbe, 0x17, 0xf0, 0x17, 0x3f, 0x75, 0x44, 0x0a, 0xbf,
  0x40, 0x1d, 0xf5, 0xbd, 0x3d, 0x81, 0x52, 0xbe, 0x87, 0xe6, 0x69, 0xbe,
  0xf1, 0x95, 0x79, 0xbd, 0x90, 0xc8, 0xa7, 0xbe, 0x48, 0xca, 0xa1, 0x3d,
  0xa1, 0x8e, 0xb3, 0x3e, 0x29, 0x10, 0xe8, 0xba, 0x53, 0x68, 0x0e, 0xbe,
  0xa3, 0xa7, 0x5e, 0x3d, 0x64, 0x38, 0x63, 0x3e, 0x1b, 0xc7, 0xdb, 0xbe,
  0x40, 0x8b, 0xd0, 0x3e, 0x47, 0xa7, 0x8d, 0xbe, 0x41, 0xdb, 0xaa, 0xbe,
  0xa6, 0xba, 0x49, 0x3f, 0xa8, 0xfa, 0x0f, 0x3e, 0x26, 0xd6, 0xa8, 0x3e,
  0x5a, 0x5a, 0x32, 0xbf, 0x0d, 0x95, 0xb4, 0xbc, 0x2a, 0xdc, 0xa1, 0x3e,
  0x1b, 0xc0, 0xe7, 0x3e, 0x20, 0x60, 0xc1, 0xbe, 0xad, 0x56, 0x0f, 0x3e,
  0xb8, 0xbe, 0xc4, 0x3d, 0xd2, 0xc2, 0xa7, 0x3e, 0x45, 0x2b, 0x25, 0xbd,
  0x59, 0x60, 0x6d, 0xbd, 0x75, 0x19, 0xb1, 0xbe, 0x13, 0xc8, 0x5a, 0xbe,
  0xc3, 0xa6, 0x65, 0xbd, 0x19, 0x1c, 0xd1, 0x3d, 0x33, 0xed, 0xe6, 0xbe,
  0xd9, 0xc4, 0xd4, 0x3e, 0xae, 0x3c, 0x88, 0x3e, 0x45, 0xee, 0x14, 0x3f,
  0x99, 0x81, 0x65, 0xbe, 0xe7, 0xfc, 0xf4, 0xbd, 0xf7, 0x66, 0x07, 0x3f,
  0xbe, 0x03, 0x9c, 0x3e, 0xff, 0x4d, 0x75, 0x3e, 0x66, 0xcc, 0x37, 0x3c,
  0xb3, 0x7a, 0x31, 0xbe, 0x49, 0xc4, 0x83, 0xbe, 0x08, 0xe4, 0x41, 0x3e,
  0xfc, 0x49, 0x82, 0x3e, 0x29, 0xdb, 0xbb, 0xbe, 0xcb, 0x30, 0x09, 0x3e,
  0x6f, 0x2a, 0x96, 0x3e, 0x2e, 0x7e, 0x08, 0x3f, 0xb5, 0x28, 0x9a, 0xbe,
  0xe9, 0xe0, 0x44, 0xbe, 0x0b, 0x9a, 0x56, 0xbe, 0xda, 0x4c, 0xef, 0x3e,
  0xd6, 0xc9, 0xb6, 0xbd, 0x3e, 0xe1, 0x37, 0x3e, 0xe3, 0xca, 0xf7, 0x3c,
  0x4b, 0x96, 0x00, 0x3f, 0x5c, 0x56, 0x06, 0x3e, 0x7d, 0x61, 0x8d, 0x3e,
  0x63, 0x00, 0x26, 0xbf, 0xab, 0x3a, 0x37, 0xbd, 0x3d, 0xa7, 0xb3, 0xbe,
  0x03, 0x7c, 0x05, 0x3f, 0x6b, 0xfd, 0x1c, 0xbf, 0x26, 0x03, 0x00, 0xbe,
  0x4a, 0x93, 0x9f, 0x3e, 0x62, 0xfc, 0xff, 0xff, 0x04, 0x00, 0x00, 0x00,
  0x40, 0x00, 0x00, 0x00, 0x06, 0x5c, 0xfc, 0x3c, 0x4b, 0xec, 0x51, 0x3e,
  0x78, 0xaa, 0x40, 0x3e, 0x05, 0x95, 0xb1, 0x3e, 0x6e, 0x68, 0x4f, 0x3d,
  0x71, 0xd1, 0xa1, 0xbd, 0xa7, 0x7b, 0x35, 0x3e, 0x2a, 0x09, 0x24, 0x3d,
  0xea, 0x04, 0x77, 0x3e, 0xa5, 0x05, 0x7e, 0x3c, 0xca, 0xfb, 0xa5, 0x3d,
  0x1f, 0x63, 0xa9, 0x3e, 0xea, 0xb6, 0x9a, 0x3e, 0xc0, 0x8e, 0x97, 0x3e,
  0x13, 0x41, 0x0d, 0x3e, 0x03, 0xdc, 0x53, 0x3d, 0xae, 0xfc, 0xff, 0xff,
  0x04, 0x00, 0x00, 0x00, 0x20, 0x00, 0x00, 0x00, 0x29, 0xfc, 0x2b, 0x3e,
  0x2e, 0x1d, 0x61, 0x3d, 0x1a, 0x53, 0x8a, 0x3d, 0xe0, 0xef, 0x70, 0x3e,
  0x95, 0xba, 0x33, 0x3e, 0x76, 0xa0, 0x93, 0x3e, 0x49, 0xe4, 0x4b, 0xbd,
  0x03, 0x07, 0x93, 0x3d, 0xda, 0xfc, 0xff, 0xff, 0x04, 0x00, 0x00, 0x00,
  0x0c, 0x00, 0x00, 0x00, 0x4f, 0x23, 0x49, 0x3d, 0x56, 0x8e, 0xd4, 0xbc,
  0x4f, 0xd4, 0xea, 0xbc, 0xf2, 0xfc, 0xff, 0xff, 0x04, 0x00, 0x00, 0x00,
  0x00, 0x02, 0x00, 0x00, 0x42, 0xa4, 0x30, 0x3e, 0x1b, 0xbc, 0x54, 0x3e,
  0x78, 0xf7, 0x89, 0x3d, 0xb9, 0x53, 0xaa, 0xbe, 0xce, 0x1b, 0x33, 0x3f,
  0x3a, 0x67, 0x90, 0xbe, 0xa7, 0xf0, 0xd3, 0xbe, 0x93, 0x0c, 0x33, 0x3d,
  0xe5, 0xfe, 0x18, 0x3f, 0x98, 0xb3, 0xac, 0x3c, 0x94, 0x78, 0x14, 0x3f,
  0xc8, 0xe3, 0x95, 0xbe, 0xe0, 0xba, 0xff, 0x3e, 0x9c, 0x4d, 0x07, 0x3e,
  0x56, 0x95, 0x18, 0xbd, 0xa8, 0x73, 0x07, 0x3f, 0x90, 0xb8, 0x0f, 0x3f,
  0x0e, 0x0a, 0x30, 0x3c, 0xe6, 0x66, 0xcf, 0x3d, 0x0c, 0xd8, 0x1f, 0x3d,
  0x61, 0x21, 0xc1, 0x3e, 0xe7, 0x0c, 0x09, 0xbe, 0xe9, 0xea, 0xce, 0xbe,
  0x07, 0x69, 0xb8, 0x3e, 0x35, 0x85, 0x84, 0xbd, 0x13, 0x84, 0x68, 0xbe,
  0xd1, 0xd3, 0x99, 0x3e, 0xf5, 0x09, 0x9b, 0xbd, 0x06, 0xcd, 0x12, 0x3f,
  0x2d, 0x42, 0x1c, 0x3e, 0x39, 0xb3, 0xda, 0xbd, 0x9a, 0x96, 0x47, 0x3e,
  0x1c, 0xce, 0x8f, 0x3e, 0xa4, 0x87, 0x67, 0xbe, 0xae, 0xdb, 0x2a, 0x3e,
  0xd3, 0xb1, 0x89, 0x3d, 0xe3, 0x5e, 0xf4, 0x3e, 0xd8, 0xdf, 0x84, 0x3e,
  0xc8, 0x1e, 0xbb, 0x3e, 0xae, 0x09, 0xd2, 0x3d, 0xa0, 0x15, 0x86, 0xbe,
  0xc8, 0x45, 0x3b, 0xbe, 0xcb, 0xb9, 0x09, 0xbe, 0x30, 0xbf, 0xfa, 0x3e,
  0x2a, 0xe7, 0x08, 0xbe, 0x80, 0xd1, 0x8a, 0x3e, 0x38, 0x4d, 0x04, 0xbe,
  0x69, 0xa4, 0x38, 0x3f, 0xaa, 0x74, 0xa4, 0xbe, 0xb7, 0x06, 0x02, 0x3f,
  0xa6, 0x8c, 0x02, 0x3d, 0xc6, 0xab, 0x55, 0x3f, 0x8f, 0x64, 0xa0, 0xbd,
  0xbd, 0x3a, 0x2f, 0xbe, 0x67, 0xdf, 0x9b, 0x3d, 0x38, 0x50, 0x3d, 0xbd,
  0xf4, 0xd4, 0x8c, 0xbb, 0x72, 0x68, 0xf8, 0x3c, 0xeb, 0xf5, 0xce, 0x3e,
  0xa4, 0xbc, 0x3d, 0x3f, 0x54, 0x19, 0x87, 0x3e, 0xc0, 0xf6, 0xc0, 0xbc,
  0x1c, 0x92, 0xe2, 0xbd, 0x8c, 0x27, 0x95, 0xbe, 0xda, 0x30, 0xa4, 0x3e,
  0x96, 0x47, 0x2e, 0x3e, 0xb2, 0x6b, 0x58, 0xbe, 0x4b, 0x1c, 0x13, 0x3f,
  0xed, 0x3c, 0xa7, 0xbd, 0x36, 0x14, 0x5d, 0xbe, 0x2a, 0xb5, 0x39, 0x3f,
  0x0b, 0x56, 0x09, 0xbf, 0xa3, 0x0a, 0x98, 0x3d, 0x64, 0xb0, 0x02, 0x3e,
  0x54, 0x24, 0xd0, 0x3e, 0xc9, 0x9f, 0x43, 0x3f, 0xd0, 0x3e, 0x92, 0xbe,
  0x8d, 0x8d, 0xba, 0x3e, 0x90, 0xe8, 0x05, 0xba, 0x2b, 0x0a, 0x35, 0x3e,
  0x52, 0x18, 0x2a, 0x3d, 0x79, 0x62, 0xac, 0x3e, 0x7c, 0x9a, 0xff, 0x3e,
  0xf4, 0xcb, 0x46, 0x3f, 0xc9, 0x9f, 0x43, 0xbd, 0x70, 0x40, 0x79, 0xbe,
  0x19, 0x9c, 0x1a, 0x3f, 0x26, 0x97, 0x1d, 0xbe, 0x78, 0x5e, 0x2c, 0x3f,
  0x51, 0xc1, 0xfe, 0x3e, 0xc2, 0x92, 0x11, 0xbe, 0x4f, 0x4a, 0xa5, 0x3e,
  0x51, 0xd7, 0xf3, 0x3e, 0x54, 0x73, 0x32, 0x3f, 0xb8, 0x2a, 0x1b, 0x3f,
  0xf3, 0x88, 0xf7, 0xbe, 0xd3, 0x61, 0xb1, 0x3d, 0x4f, 0x20, 0xa9, 0xbe,
  0x91, 0xac, 0x97, 0x3c, 0x8d, 0x54, 0x1b, 0x3f, 0x7e, 0x67, 0xbc, 0xbd,
  0x2b, 0x55, 0x1f, 0x3f, 0x4d, 0x6d, 0x24, 0x3f, 0xd2, 0x1d, 0x67, 0xbe,
  0xf3, 0xbe, 0x2d, 0x3e, 0xec, 0x6f, 0xe3, 0x3e, 0x04, 0xd4, 0xdd, 0x3e,
  0x9c, 0xf0, 0x24, 0x3f, 0x44, 0x0f, 0xd3, 0x3d, 0xbf, 0x89, 0x5f, 0x3e,
  0x02, 0xde, 0x06, 0x3e, 0x14, 0x33, 0xb2, 0xbc, 0xa2, 0xdb, 0x6b, 0xbe,
  0x9b, 0xf4, 0x0f, 0x3f, 0x37, 0xe8, 0xd8, 0xbe, 0xee, 0xca, 0xed, 0xbc,
  0x4c, 0x99, 0xcc, 0x3e, 0xfe, 0x9a, 0x8d, 0x3e, 0x18, 0x01, 0x76, 0xbe,
  0xb5, 0xd6, 0x3b, 0x3f, 0xa2, 0xc2, 0x0b, 0x3f, 0x44, 0x11, 0x8c, 0xbe,
  0x4a, 0x81, 0xdd, 0x3e, 0x92, 0x64, 0x59, 0x3e, 0x62, 0xcb, 0x44, 0x3f,
  0xdd, 0x7b, 0x2a, 0xb7, 0x49, 0x1a, 0x8e, 0xbe, 0x7c, 0xbb, 0xab, 0x3d,
  0xfe, 0xfe, 0xff, 0xff, 0x04, 0x00, 0x00, 0x00, 0x60, 0x00, 0x00, 0x00,
  0x62, 0x14, 0x23, 0x3f, 0x26, 0x9a, 0xd6, 0x3e, 0xf1, 0x17, 0x27, 0xbf,
  0x0a, 0x70, 0x7b, 0xbe, 0x8e, 0xeb, 0x10, 0xbf, 0x9e, 0x39, 0x33, 0x3f,
  0xd0, 0xe2, 0x24, 0xbf, 0xd2, 0xd0, 0x5b, 0x3f, 0x98, 0xe3, 0xe0, 0xbe,
  0xef, 0xf8, 0x5b, 0xbf, 0x39, 0xb8, 0x12, 0x3f, 0x9f, 0xb2, 0xbc, 0x3d,
  0x89, 0xca, 0x5e, 0x3f, 0xb2, 0xeb, 0xe4, 0x3e, 0x35, 0x12, 0x18, 0x3f,
  0x42, 0x3d, 0x90, 0x3d, 0xeb, 0x86, 0x22, 0x3f, 0x58, 0x22, 0xcf, 0x3e,
  0x3f, 0x9e, 0x4e, 0x3f, 0xc6, 0xac, 0x94, 0xbf, 0x7e, 0x02, 0x15, 0x3f,
  0x21, 0x81, 0x49, 0xbf, 0x39, 0x33, 0x31, 0xbd, 0x96, 0xa3, 0x00, 0x3f,
  0x68, 0xfa, 0xff, 0xff, 0x6c, 0xfa, 0xff, 0xff, 0x0f, 0x00, 0x00, 0x00,
  0x4d, 0x4c, 0x49, 0x52, 0x20, 0x43, 0x6f, 0x6e, 0x76, 0x65, 0x72, 0x74,
  0x65, 0x64, 0x2e, 0x00, 0x01, 0x00, 0x00, 0x00, 0x14, 0x00, 0x00, 0x00,
  0x00, 0x00, 0x0e, 0x00, 0x18, 0x00, 0x14, 0x00, 0x10, 0x00, 0x0c, 0x00,
  0x08, 0x00, 0x04, 0x00, 0x0e, 0x00, 0x00, 0x00, 0x14, 0x00, 0x00, 0x00,
  0x1c, 0x00, 0x00, 0x00, 0x34, 0x01, 0x00, 0x00, 0x38, 0x01, 0x00, 0x00,
  0x3c, 0x01, 0x00, 0x00, 0x04, 0x00, 0x00, 0x00, 0x6d, 0x61, 0x69, 0x6e,
  0x00, 0x00, 0x00, 0x00, 0x04, 0x00, 0x00, 0x00, 0xdc, 0x00, 0x00, 0x00,
  0x94, 0x00, 0x00, 0x00, 0x50, 0x00, 0x00, 0x00, 0x14, 0x00, 0x00, 0x00,
  0x00, 0x00, 0x0e, 0x00, 0x1a, 0x00, 0x14, 0x00, 0x10, 0x00, 0x0c, 0x00,
  0x0b, 0x00, 0x04, 0x00, 0x0e, 0x00, 0x00, 0x00, 0x1c, 0x00, 0x00, 0x00,
  0x00, 0x00, 0x00, 0x09, 0x1c, 0x00, 0x00, 0x00, 0x20, 0x00, 0x00, 0x00,
  0x01, 0x00, 0x00, 0x00, 0x00, 0x00, 0x06, 0x00, 0x08, 0x00, 0x04, 0x00,
  0x06, 0x00, 0x00, 0x00, 0x00, 0x00, 0x80, 0x3f, 0x01, 0x00, 0x00, 0x00,
  0x0a, 0x00, 0x00, 0x00, 0x01, 0x00, 0x00, 0x00, 0x09, 0x00, 0x00, 0x00,
  0xce, 0xff, 0xff, 0xff, 0x10, 0x00, 0x00, 0x00, 0x00, 0x00, 0x00, 0x08,
  0x0c, 0x00, 0x00, 0x00, 0x10, 0x00, 0x00, 0x00, 0x30, 0xfb, 0xff, 0xff,
  0x01, 0x00, 0x00, 0x00, 0x09, 0x00, 0x00, 0x00, 0x03, 0x00, 0x00, 0x00,
  0x08, 0x00, 0x00, 0x00, 0x01, 0x00, 0x00, 0x00, 0x03, 0x00, 0x00, 0x00,
  0x00, 0x00, 0x0e, 0x00, 0x14, 0x00, 0x00, 0x00, 0x10, 0x00, 0x0c, 0x00,
  0x0b, 0x00, 0x04, 0x00, 0x0e, 0x00, 0x00, 0x00, 0x10, 0x00, 0x00, 0x00,
  0x00, 0x00, 0x00, 0x08, 0x10, 0x00, 0x00, 0x00, 0x14, 0x00, 0x00, 0x00,
  0xba, 0xff, 0xff, 0xff, 0x00, 0x00, 0x00, 0x01, 0x01, 0x00, 0x00, 0x00,
  0x08, 0x00, 0x00, 0x00, 0x03, 0x00, 0x00, 0x00, 0x07, 0x00, 0x00, 0x00,
  0x02, 0x00, 0x00, 0x00, 0x04, 0x00, 0x00, 0x00, 0x00, 0x00, 0x0e, 0x00,
  0x16, 0x00, 0x00, 0x00, 0x10, 0x00, 0x0c, 0x00, 0x0b, 0x00, 0x04, 0x00,
  0x0e, 0x00, 0x00, 0x00, 0x18, 0x00, 0x00, 0x00, 0x00, 0x00, 0x00, 0x08,
  0x18, 0x00, 0x00, 0x00, 0x1c, 0x00, 0x00, 0x00, 0x00, 0x00, 0x06, 0x00,
  0x08, 0x00, 0x07, 0x00, 0x06, 0x00, 0x00, 0x00, 0x00, 0x00, 0x00, 0x01,
  0x01, 0x00, 0x00, 0x00, 0x07, 0x00, 0x00, 0x00, 0x03, 0x00, 0x00, 0x00,
  0x00, 0x00, 0x00, 0x00, 0x06, 0x00, 0x00, 0x00, 0x05, 0x00, 0x00, 0x00,
  0x01, 0x00, 0x00, 0x00, 0x0a, 0x00, 0x00, 0x00, 0x01, 0x00, 0x00, 0x00,
  0x00, 0x00, 0x00, 0x00, 0x0b, 0x00, 0x00, 0x00, 0xe8, 0x03, 0x00, 0x00,
  0x90, 0x03, 0x00, 0x00, 0x38, 0x03, 0x00, 0x00, 0xfc, 0x02, 0x00, 0x00,
  0xc0, 0x02, 0x00, 0x00, 0x64, 0x02, 0x00, 0x00, 0x14, 0x02, 0x00, 0x00,
  0x78, 0x01, 0x00, 0x00, 0xdc, 0x00, 0x00, 0x00, 0x60, 0x00, 0x00, 0x00,
  0x04, 0x00, 0x00, 0x00, 0x5a, 0xfc, 0xff, 0xff, 0x00, 0x00, 0x00, 0x01,
  0x14, 0x00, 0x00, 0x00, 0x1c, 0x00, 0x00, 0x00, 0x1c, 0x00, 0x00, 0x00,
  0x0b, 0x00, 0x00, 0x00, 0x34, 0x00, 0x00, 0x00, 0x02, 0x00, 0x00, 0x00,
  0xff, 0xff, 0xff, 0xff, 0x03, 0x00, 0x00, 0x00, 0x44, 0xfc, 0xff, 0xff,
  0x1b, 0x00, 0x00, 0x00, 0x53, 0x74, 0x61, 0x74, 0x65, 0x66, 0x75, 0x6c,
  0x50, 0x61, 0x72, 0x74, 0x69, 0x74, 0x69, 0x6f, 0x6e, 0x65, 0x64, 0x43,
  0x61, 0x6c, 0x6c, 0x5f, 0x31, 0x3a, 0x30, 0x00, 0x02, 0x00, 0x00, 0x00,
  0x01, 0x00, 0x00, 0x00, 0x03, 0x00, 0x00, 0x00, 0xb2, 0xfc, 0xff, 0xff,
  0x00, 0x00, 0x00, 0x01, 0x14, 0x00, 0x00, 0x00, 0x1c, 0x00, 0x00, 0x00,
  0x1c, 0x00, 0x00, 0x00, 0x0a, 0x00, 0x00, 0x00, 0x54, 0x00, 0x00, 0x00,
  0x02, 0x00, 0x00, 0x00, 0xff, 0xff, 0xff, 0xff, 0x03, 0x00, 0x00, 0x00,
  0x9c, 0xfc, 0xff, 0xff, 0x3a, 0x00, 0x00, 0x00, 0x73, 0x65, 0x71, 0x75,
  0x65, 0x6e, 0x74, 0x69, 0x61, 0x6c, 0x5f, 0x31, 0x2f, 0x6f, 0x75, 0x74,
  0x70, 0x75, 0x74, 0x5f, 0x31, 0x2f, 0x4d, 0x61, 0x74, 0x4d, 0x75, 0x6c,
  0x3b, 0x73, 0x65, 0x71, 0x75, 0x65, 0x6e, 0x74, 0x69, 0x61, 0x6c, 0x5f,
  0x31, 0x2f, 0x6f, 0x75, 0x74, 0x70, 0x75, 0x74, 0x5f, 0x31, 0x2f, 0x42,
  0x69, 0x61, 0x73, 0x41, 0x64, 0x64, 0x00, 0x00, 0x02, 0x00, 0x00, 0x00,
  0x01, 0x00, 0x00, 0x00, 0x03, 0x00, 0x00, 0x00, 0x2a, 0xfd, 0xff, 0xff,
  0x00, 0x00, 0x00, 0x01, 0x14, 0x00, 0x00, 0x00, 0x1c, 0x00, 0x00, 0x00,
  0x1c, 0x00, 0x00, 0x00, 0x09, 0x00, 0x00, 0x00, 0x74, 0x00, 0x00, 0x00,
  0x02, 0x00, 0x00, 0x00, 0xff, 0xff, 0xff, 0xff, 0x08, 0x00, 0x00, 0x00,
  0x14, 0xfd, 0xff, 0xff, 0x5b, 0x00, 0x00, 0x00, 0x73, 0x65, 0x71, 0x75,
  0x65, 0x6e, 0x74, 0x69, 0x61, 0x6c, 0x5f, 0x31, 0x2f, 0x68, 0x69, 0x64,
  0x64, 0x65, 0x6e, 0x5f, 0x32, 0x5f, 0x31, 0x2f, 0x4d, 0x61, 0x74, 0x4d,
  0x75, 0x6c, 0x3b, 0x73, 0x65, 0x71, 0x75, 0x65, 0x6e, 0x74, 0x69, 0x61,
  0x6c, 0x5f, 0x31, 0x2f, 0x68, 0x69, 0x64, 0x64, 0x65, 0x6e, 0x5f, 0x32,
  0x5f, 0x31, 0x2f, 0x52, 0x65, 0x6c, 0x75, 0x3b, 0x73, 0x65, 0x71, 0x75,
  0x65, 0x6e, 0x74, 0x69, 0x61, 0x6c, 0x5f, 0x31, 0x2f, 0x68, 0x69, 0x64,
  0x64, 0x65, 0x6e, 0x5f, 0x32, 0x5f, 0x31, 0x2f, 0x42, 0x69, 0x61, 0x73,
  0x41, 0x64, 0x64, 0x00, 0x02, 0x00, 0x00, 0x00, 0x01, 0x00, 0x00, 0x00,
  0x08, 0x00, 0x00, 0x00, 0xc2, 0xfd, 0xff, 0xff, 0x00, 0x00, 0x00, 0x01,
  0x14, 0x00, 0x00, 0x00, 0x1c, 0x00, 0x00, 0x00, 0x1c, 0x00, 0x00, 0x00,
  0x08, 0x00, 0x00, 0x00, 0x74, 0x00, 0x00, 0x00, 0x02, 0x00, 0x00, 0x00,
  0xff, 0xff, 0xff, 0xff, 0x10, 0x00, 0x00, 0x00, 0xac, 0xfd, 0xff, 0xff,
  0x5b, 0x00, 0x00, 0x00, 0x73, 0x65, 0x71, 0x75, 0x65, 0x6e, 0x74, 0x69,
  0x61, 0x6c, 0x5f, 0x31, 0x2f, 0x68, 0x69, 0x64, 0x64, 0x65, 0x6e, 0x5f,
  0x31, 0x5f, 0x31, 0x2f, 0x4d, 0x61, 0x74, 0x4d, 0x75, 0x6c, 0x3b, 0x73,
  0x65, 0x71, 0x75, 0x65, 0x6e, 0x74, 0x69, 0x61, 0x6c, 0x5f, 0x31, 0x2f,
  0x68, 0x69, 0x64, 0x64, 0x65, 0x6e, 0x5f, 0x31, 0x5f, 0x31, 0x2f, 0x52,
  0x65, 0x6c, 0x75, 0x3b, 0x73, 0x65, 0x71, 0x75, 0x65, 0x6e, 0x74, 0x69,
  0x61, 0x6c, 0x5f, 0x31, 0x2f, 0x68, 0x69, 0x64, 0x64, 0x65, 0x6e, 0x5f,
  0x31, 0x5f, 0x31, 0x2f, 0x42, 0x69, 0x61, 0x73, 0x41, 0x64, 0x64, 0x00,
  0x02, 0x00, 0x00, 0x00, 0x01, 0x00, 0x00, 0x00, 0x10, 0x00, 0x00, 0x00,
  0xae, 0xfe, 0xff, 0xff, 0x00, 0x00, 0x00, 0x01, 0x10, 0x00, 0x00, 0x00,
  0x10, 0x00, 0x00, 0x00, 0x07, 0x00, 0x00, 0x00, 0x2c, 0x00, 0x00, 0x00,
  0x34, 0xfe, 0xff, 0xff, 0x1e, 0x00, 0x00, 0x00, 0x73, 0x65, 0x71, 0x75,
  0x65, 0x6e, 0x74, 0x69, 0x61, 0x6c, 0x5f, 0x31, 0x2f, 0x68, 0x69, 0x64,
  0x64, 0x65, 0x6e, 0x5f, 0x31, 0x5f, 0x31, 0x2f, 0x4d, 0x61, 0x74, 0x4d,
  0x75, 0x6c, 0x00, 0x00, 0x02, 0x00, 0x00, 0x00, 0x10, 0x00, 0x00, 0x00,
  0x0d, 0x00, 0x00, 0x00, 0xfa, 0xfe, 0xff, 0xff, 0x00, 0x00, 0x00, 0x01,
  0x10, 0x00, 0x00, 0x00, 0x10, 0x00, 0x00, 0x00, 0x06, 0x00, 0x00, 0x00,
  0x3c, 0x00, 0x00, 0x00, 0x80, 0xfe, 0xff, 0xff, 0x2e, 0x00, 0x00, 0x00,
  0x73, 0x65, 0x71, 0x75, 0x65, 0x6e, 0x74, 0x69, 0x61, 0x6c, 0x5f, 0x31,
  0x2f, 0x68, 0x69, 0x64, 0x64, 0x65, 0x6e, 0x5f, 0x31, 0x5f, 0x31, 0x2f,
  0x42, 0x69, 0x61, 0x73, 0x41, 0x64, 0x64, 0x2f, 0x52, 0x65, 0x61, 0x64,
  0x56, 0x61, 0x72, 0x69, 0x61, 0x62, 0x6c, 0x65, 0x4f, 0x70, 0x00, 0x00,
  0x01, 0x00, 0x00, 0x00, 0x10, 0x00, 0x00, 0x00, 0x52, 0xff, 0xff, 0xff,
  0x00, 0x00, 0x00, 0x01, 0x10, 0x00, 0x00, 0x00, 0x10, 0x00, 0x00, 0x00,
  0x05, 0x00, 0x00, 0x00, 0x1c, 0x00, 0x00, 0x00, 0xd8, 0xfe, 0xff, 0xff,
  0x0f, 0x00, 0x00, 0x00, 0x61, 0x72, 0x69, 0x74, 0x68, 0x2e, 0x63, 0x6f,
  0x6e, 0x73, 0x74, 0x61, 0x6e, 0x74, 0x33, 0x00, 0x01, 0x00, 0x00, 0x00,
  0x08, 0x00, 0x00, 0x00, 0x8a, 0xff, 0xff, 0xff, 0x00, 0x00, 0x00, 0x01,
  0x10, 0x00, 0x00, 0x00, 0x10, 0x00, 0x00, 0x00, 0x04, 0x00, 0x00, 0x00,
  0x1c, 0x00, 0x00, 0x00, 0x10, 0xff, 0xff, 0xff, 0x0f, 0x00, 0x00, 0x00,
  0x61, 0x72, 0x69, 0x74, 0x68, 0x2e, 0x63, 0x6f, 0x6e, 0x73, 0x74, 0x61,
  0x6e, 0x74, 0x32, 0x00, 0x01, 0x00, 0x00, 0x00, 0x03, 0x00, 0x00, 0x00,
  0xc2, 0xff, 0xff, 0xff, 0x00, 0x00, 0x00, 0x01, 0x10, 0x00, 0x00, 0x00,
  0x10, 0x00, 0x00, 0x00, 0x03, 0x00, 0x00, 0x00, 0x1c, 0x00, 0x00, 0x00,
  0x48, 0xff, 0xff, 0xff, 0x0f, 0x00, 0x00, 0x00, 0x61, 0x72, 0x69, 0x74,
  0x68, 0x2e, 0x63, 0x6f, 0x6e, 0x73, 0x74, 0x61, 0x6e, 0x74, 0x31, 0x00,
  0x02, 0x00, 0x00, 0x00, 0x08, 0x00, 0x00, 0x00, 0x10, 0x00, 0x00, 0x00,
  0x00, 0x00, 0x16, 0x00, 0x18, 0x00, 0x14, 0x00, 0x00, 0x00, 0x10, 0x00,
  0x0c, 0x00, 0x08, 0x00, 0x00, 0x00, 0x00, 0x00, 0x00, 0x00, 0x07, 0x00,
  0x16, 0x00, 0x00, 0x00, 0x00, 0x00, 0x00, 0x01, 0x10, 0x00, 0x00, 0x00,
  0x10, 0x00, 0x00, 0x00, 0x02, 0x00, 0x00, 0x00, 0x1c, 0x00, 0x00, 0x00,
  0x9c, 0xff, 0xff, 0xff, 0x0e, 0x00, 0x00, 0x00, 0x61, 0x72, 0x69, 0x74,
  0x68, 0x2e, 0x63, 0x6f, 0x6e, 0x73, 0x74, 0x61, 0x6e, 0x74, 0x00, 0x00,
  0x02, 0x00, 0x00, 0x00, 0x03, 0x00, 0x00, 0x00, 0x08, 0x00, 0x00, 0x00,
  0x00, 0x00, 0x16, 0x00, 0x1c, 0x00, 0x18, 0x00, 0x00, 0x00, 0x14, 0x00,
  0x10, 0x00, 0x0c, 0x00, 0x00, 0x00, 0x00, 0x00, 0x08, 0x00, 0x07, 0x00,
  0x16, 0x00, 0x00, 0x00, 0x00, 0x00, 0x00, 0x01, 0x14, 0x00, 0x00, 0x00,
  0x20, 0x00, 0x00, 0x00, 0x20, 0x00, 0x00, 0x00, 0x01, 0x00, 0x00, 0x00,
  0x3c, 0x00, 0x00, 0x00, 0x02, 0x00, 0x00, 0x00, 0xff, 0xff, 0xff, 0xff,
  0x0d, 0x00, 0x00, 0x00, 0x04, 0x00, 0x04, 0x00, 0x04, 0x00, 0x00, 0x00,
  0x1e, 0x00, 0x00, 0x00, 0x73, 0x65, 0x72, 0x76, 0x69, 0x6e, 0x67, 0x5f,
  0x64, 0x65, 0x66, 0x61, 0x75, 0x6c, 0x74, 0x5f, 0x6b, 0x65, 0x72, 0x61,
  0x73, 0x5f, 0x74, 0x65, 0x6e, 0x73, 0x6f, 0x72, 0x3a, 0x30, 0x00, 0x00,
  0x02, 0x00, 0x00, 0x00, 0x01, 0x00, 0x00, 0x00, 0x0d, 0x00, 0x00, 0x00,
  0x02, 0x00, 0x00, 0x00, 0x20, 0x00, 0x00, 0x00, 0x04, 0x00, 0x00, 0x00,
  0xf4, 0xff, 0xff, 0xff, 0x19, 0x00, 0x00, 0x00, 0x00, 0x00, 0x00, 0x19,
  0x0c, 0x00, 0x0c, 0x00, 0x0b, 0x00, 0x00, 0x00, 0x00, 0x00, 0x04, 0x00,
  0x0c, 0x00, 0x00, 0x00, 0x09, 0x00, 0x00, 0x00, 0x00, 0x00, 0x00, 0x09
};
unsigned int wine_mlp_float_tflite_len = 3648;
